<unk>	0
<s>	0
</s>	0
s	-2.94241
▁the	-3.6584
.	-3.68766
▁a	-3.98886
▁to	-4.12192
▁in	-4.29301
ing	-4.35855
ed	-4.40665
▁of	-4.40975
-	-4.57845
▁s	-4.6529
d	-4.73464
▁and	-4.7531
n	-4.76101
t	-4.87742
▁on	-4.91893
▁	-4.9235
▁for	-5.01068
er	-5.05762
e	-5.07331
y	-5.12387
▁#	-5.14904
39	-5.20733
a	-5.27648
c	-5.28177
▁(	-5.29565
)	-5.29641
▁-	-5.30521
b	-5.48223
p	-5.54177
m	-5.55492
'	-5.59414
o	-5.65395
▁that	-5.65896
▁with	-5.67769
u	-5.69431
r	-5.70692
i	-5.70924
g	-5.71968
▁at	-5.72404
in	-5.76249
al	-5.79215
▁as	-5.81481
▁is	-5.83127
▁new	-5.85899
▁t	-5.86334
ly	-5.87172
k	-5.87187
l	-5.87415
▁be	-5.8941
▁it	-5.91095
re	-5.91918
es	-5.92432
▁its	-5.94298
▁b	-5.9446
▁an	-5.94485
▁by	-5.9586
or	-5.96473
le	-5.98
▁said	-5.99581
▁re	-6.03561
▁has	-6.04524
:	-6.04602
en	-6.05934
f	-6.06813
h	-6.07833
w	-6.08328
ur	-6.09227
ar	-6.10953
▁f	-6.11084
▁from	-6.12581
▁p	-6.12748
an	-6.17288
&	-6.18753
lt	-6.19551
ri	-6.23625
▁us	-6.23795
th	-6.27538
▁will	-6.28539
▁his	-6.29231
ch	-6.29254
reuters	-6.29698
ic	-6.30537
ra	-6.31224
▁after	-6.31503
ent	-6.33594
▁was	-6.3372
▁over	-6.34328
ers	-6.36161
it	-6.3717
▁c	-6.40363
ap	-6.41153
gt	-6.42114
▁g	-6.4228
▁u	-6.45625
▁h	-6.46145
z	-6.46462
▁he	-6.47121
la	-6.49851
on	-6.52477
il	-6.52503
▁up	-6.52964
▁de	-6.53809
at	-6.54785
el	-6.55742
▁e	-6.55977
se	-6.56243
▁co	-6.56768
▁have	-6.57195
▁st	-6.58629
▁quot	-6.61529
v	-6.62279
0	-6.62844
▁are	-6.62908
ce	-6.63268
▁w	-6.64935
st	-6.64991
ation	-6.65382
1	-6.66342
▁their	-6.66794
li	-6.6681
2	-6.68207
▁two	-6.68666
id	-6.68961
/	-6.70878
▁first	-6.72131
ment	-6.72494
ro	-6.73479
▁out	-6.73814
▁&	-6.74387
ol	-6.74599
▁but	-6.7569
▁m	-6.78341
▁more	-6.79048
us	-6.80962
▁ap	-6.81227
▁world	-6.82419
ter	-6.82567
▁d	-6.82876
lo	-6.83186
un	-6.83942
▁mo	-6.84059
▁no	-6.8435
▁con	-6.84461
▁k	-6.8553
▁un	-6.85648
ate	-6.85867
▁2	-6.85985
ry	-6.86238
=	-6.87172
▁not	-6.87854
▁o	-6.885
ve	-6.88635
▁win	-6.88662
com	-6.88826
▁this	-6.89504
▁ex	-6.90913
ion	-6.9101
▁ra	-6.92279
5	-6.92957
x	-6.9316
tion	-6.94087
ist	-6.94186
3	-6.9472
▁one	-6.95647
▁company	-6.96127
is	-6.96496
▁monday	-6.97431
▁--	-6.97878
▁oil	-6.98157
▁wednesday	-6.9854
6	-6.99431
▁tuesday	-6.9946
ir	-7.00104
ive	-7.00109
ke	-7.0042
▁thursday	-7.01108
▁inc	-7.01844
ies	-7.02144
▁do	-7.02169
am	-7.02753
et	-7.0423
ct	-7.04303
▁who	-7.04485
▁ro	-7.05311
ll	-7.0532
▁sp	-7.05616
▁week	-7.05622
ul	-7.05946
▁bo	-7.06772
▁year	-7.06912
▁than	-7.07095
▁against	-7.07358
im	-7.07529
▁friday	-7.07694
ia	-7.07697
ad	-7.0844
▁n	-7.08838
▁la	-7.09003
4	-7.09284
um	-7.09318
ge	-7.11
▁last	-7.11375
ant	-7.11406
▁into	-7.11548
est	-7.12026
▁or	-7.12318
▁/	-7.12638
▁about	-7.14701
▁iraq	-7.15008
▁york	-7.15371
▁3	-7.15594
▁so	-7.15883
te	-7.16189
co	-7.16344
de	-7.16871
▁million	-7.17916
age	-7.19134
▁yesterday	-7.1936
▁r	-7.19559
▁mi	-7.19629
▁al	-7.2011
ma	-7.20147
ian	-7.20877
▁three	-7.21391
▁president	-7.21426
▁open	-7.21429
son	-7.21547
ta	-7.21792
me	-7.21831
▁microsoft	-7.2233
▁ho	-7.22553
▁back	-7.22805
▁time	-7.23045
▁were	-7.2324
ne	-7.2374
9	-7.2399
▁go	-7.24785
7	-7.2523
8	-7.25441
sh	-7.25748
▁game	-7.2625
▁i	-7.27555
na	-7.28804
▁4	-7.29466
▁team	-7.29985
▁been	-7.30316
▁end	-7.30589
▁mar	-7.30794
pe	-7.31101
om	-7.31319
ting	-7.31847
▁group	-7.32105
▁all	-7.32952
▁ha	-7.32972
▁can	-7.3305
▁car	-7.33571
▁they	-7.34069
▁had	-7.3411
▁corp	-7.34209
▁war	-7.34526
▁market	-7.34941
les	-7.3535
▁off	-7.36201
▁says	-7.3638
▁pro	-7.36626
▁high	-7.36673
▁united	-7.36947
to	-7.37164
▁may	-7.37539
able	-7.37619
ow	-7.3762
mo	-7.37701
▁government	-7.37935
lu	-7.38034
▁6	-7.38189
ard	-7.38489
▁when	-7.38574
▁could	-7.38747
mp	-7.39548
▁ma	-7.39618
ru	-7.40334
▁sunday	-7.40453
▁next	-7.40467
▁would	-7.40567
▁ca	-7.40755
▁second	-7.40932
▁br	-7.41225
ca	-7.41589
▁com	-7.41609
▁lead	-7.42002
ect	-7.42377
▁home	-7.42948
ity	-7.43051
ill	-7.43422
▁prices	-7.43602
▁pa	-7.44381
man	-7.44402
▁state	-7.44429
▁security	-7.44756
ide	-7.44934
fi	-7.4553
▁people	-7.45645
▁today	-7.45688
▁some	-7.45871
▁take	-7.46536
▁1	-7.46551
one	-7.46684
j	-7.47414
ick	-7.47818
▁man	-7.48037
▁which	-7.48273
ut	-7.48549
▁percent	-7.4858
ure	-7.49179
per	-7.49474
▁deal	-7.49589
▁po	-7.49727
▁fl	-7.5043
ti	-7.50556
▁software	-7.51084
ho	-7.51203
ot	-7.5159
▁l	-7.51794
ted	-7.51818
up	-7.51837
▁season	-7.51871
▁record	-7.52213
ie	-7.52223
▁ja	-7.52481
as	-7.52615
ig	-7.52957
op	-7.53009
ack	-7.53022
▁profit	-7.53195
▁...	-7.53296
ac	-7.53451
▁years	-7.53555
▁reuters	-7.53619
00	-7.53885
ton	-7.54095
▁vi	-7.54591
ell	-7.54945
▁business	-7.55045
tic	-7.55437
ther	-7.56043
▁night	-7.5606
po	-7.5619
▁third	-7.57027
▁down	-7.57264
▁j	-7.58263
▁minister	-7.58346
▁lo	-7.58433
▁set	-7.58455
▁per	-7.58571
ni	-7.58711
va	-7.58823
▁ru	-7.59229
▁leader	-7.596
vi	-7.59915
▁saturday	-7.59927
▁internet	-7.60038
▁help	-7.6053
▁plan	-7.61213
▁report	-7.61222
bo	-7.61613
▁7	-7.61657
▁get	-7.62094
▁bank	-7.62319
▁start	-7.62395
▁china	-7.62538
no	-7.62544
ba	-7.62567
▁ga	-7.63546
mb	-7.63659
▁other	-7.63691
▁top	-7.63828
▁show	-7.63911
ga	-7.6397
and	-7.64048
▁offer	-7.64911
qu	-7.65018
▁en	-7.65088
nd	-7.65354
▁5	-7.65753
▁10	-7.66021
▁see	-7.66117
▁gr	-7.66373
▁hit	-7.6646
go	-7.66898
ip	-7.67309
▁billion	-7.67739
▁di	-7.67789
▁four	-7.68085
end	-7.68143
ance	-7.68245
▁day	-7.68261
▁sales	-7.68304
ag	-7.68553
ine	-7.68648
▁te	-7.68739
▁computer	-7.69172
▁final	-7.69351
▁american	-7.69876
▁just	-7.70159
▁network	-7.70339
old	-7.70512
▁bush	-7.70582
▁comp	-7.70745
ver	-7.70851
ight	-7.70869
▁make	-7.7109
▁dis	-7.71304
▁fa	-7.7157
▁cut	-7.71627
fullquote	-7.71677
▁le	-7.7205
ph	-7.72147
▁ar	-7.72185
ha	-7.7227
ward	-7.72543
ft	-7.72552
▁san	-7.72555
▁say	-7.7273
▁washington	-7.72745
▁li	-7.73384
▁play	-7.73728
▁most	-7.73914
▁under	-7.74448
mi	-7.7455
▁target	-7.74587
▁ch	-7.74703
▁ba	-7.75002
▁red	-7.75219
▁court	-7.7522
▁v	-7.7566
▁election	-7.7598
▁international	-7.76046
▁2004	-7.7612
▁buy	-7.7626
land	-7.76569
ud	-7.7675
▁post	-7.76883
▁announced	-7.77196
▁former	-7.77522
led	-7.78032
▁bomb	-7.78312
▁work	-7.78726
ner	-7.79223
▁research	-7.79624
ci	-7.80153
▁killed	-7.80189
pp	-7.80227
year	-7.80252
▁move	-7.80313
▁giant	-7.80467
▁$1	-7.80615
ak	-7.80657
▁long	-7.80821
ger	-7.80846
▁me	-7.81265
▁chief	-7.81768
▁service	-7.82117
pt	-7.82329
tra	-7.82431
▁head	-7.82737
ex	-7.82765
▁sign	-7.82823
port	-7.83027
▁tri	-7.83257
ence	-7.83294
▁victory	-7.8346
▁test	-7.83507
▁you	-7.83756
▁search	-7.83833
▁city	-7.83933
▁da	-7.84288
ish	-7.84352
wa	-7.84771
▁200	-7.85027
▁web	-7.85254
▁south	-7.85755
min	-7.86327
▁space	-7.8652
▁pre	-7.86781
▁cr	-7.8686
▁european	-7.87368
▁officials	-7.87486
be	-7.8762
▁part	-7.87819
di	-7.88044
▁if	-7.88265
▁sa	-7.88314
iv	-7.88442
...	-7.89439
▁close	-7.90001
rs	-7.90073
▁before	-7.90399
▁phone	-7.905
▁reported	-7.90602
▁stocks	-7.90606
▁charge	-7.90721
▁pay	-7.90756
ty	-7.90943
▁major	-7.91536
ice	-7.91655
ber	-7.91722
▁su	-7.91959
ee	-7.91986
▁vo	-7.9218
▁won	-7.92248
▁ne	-7.92375
▁air	-7.92529
▁big	-7.92545
▁technology	-7.92788
ors	-7.92836
▁plans	-7.92931
▁national	-7.93001
▁league	-7.93027
ff	-7.93302
ship	-7.9336
▁cup	-7.93873
▁trade	-7.9421
lin	-7.94226
▁bid	-7.94304
mon	-7.94543
▁country	-7.94732
▁cl	-7.9556
ary	-7.95662
▁maker	-7.95676
▁north	-7.95864
▁iraqi	-7.96047
▁talks	-7.9642
▁states	-7.96491
▁now	-7.96501
▁what	-7.96964
▁pe	-7.97055
▁put	-7.97238
▁sc	-7.97819
▁look	-7.98044
info	-7.98188
▁way	-7.9824
ster	-7.98326
▁month	-7.98478
▁free	-7.98496
▁online	-7.98733
▁john	-7.98827
▁india	-7.99141
▁coach	-7.99148
▁face	-7.9928
▁her	-7.99482
▁8	-7.99618
▁police	-7.99662
ny	-7.9979
▁five	-7.99914
ite	-7.99939
▁19	-8.00518
▁dollar	-8.008
▁british	-8.01021
▁ju	-8.01512
▁olympic	-8.01652
▁ta	-8.01656
▁prime	-8.01952
ling	-8.02
▁dec	-8.02052
▁music	-8.02371
pl	-8.02896
gg	-8.03008
▁palestinian	-8.03493
▁federal	-8.03531
fa	-8.03672
▁japan	-8.03682
em	-8.03692
ten	-8.03745
out	-8.03916
▁el	-8.0416
▁quarter	-8.04199
▁firm	-8.04218
ugh	-8.04264
▁hand	-8.04461
▁google	-8.04521
cy	-8.04592
▁im	-8.04923
▁pi	-8.04947
ron	-8.05395
▁shares	-8.05954
all	-8.06106
▁least	-8.06324
▁claim	-8.06496
ref	-8.06498
▁fall	-8.06863
▁gold	-8.07188
▁executive	-8.07555
▁run	-8.07651
▁beat	-8.07795
▁another	-8.07835
afp	-8.07848
do	-8.07957
▁add	-8.08338
▁ibm	-8.08631
hi	-8.08663
▁hold	-8.08717
unt	-8.08831
wi	-8.08935
▁data	-8.09058
▁hu	-8.09124
▁attack	-8.09147
we	-8.09261
▁9	-8.09287
▁according	-8.09388
▁six	-8.09559
gra	-8.09579
▁wi	-8.09614
▁call	-8.09785
▁drug	-8.10319
▁cha	-8.10453
▁strong	-8.10522
▁made	-8.10656
▁union	-8.10918
▁companies	-8.10928
▁loss	-8.10949
pa	-8.10999
quick	-8.11188
▁vote	-8.11218
▁we	-8.11329
▁y	-8.11435
▁give	-8.11542
▁cost	-8.11594
way	-8.11666
▁stock	-8.11869
▁return	-8.11872
tain	-8.12039
▁gu	-8.12063
▁while	-8.12368
▁news	-8.12427
▁found	-8.12468
ial	-8.1254
▁during	-8.12864
▁mobile	-8.12908
ator	-8.13031
▁through	-8.13075
▁london	-8.13158
ticker	-8.13311
▁fight	-8.13332
▁line	-8.13757
▁launch	-8.14097
▁rise	-8.14198
io	-8.14293
iz	-8.14299
ous	-8.14485
▁between	-8.14673
▁still	-8.15033
▁series	-8.15204
ok	-8.15277
▁dead	-8.15426
▁largest	-8.15458
▁industry	-8.15567
▁sha	-8.15604
▁champion	-8.16218
▁official	-8.1655
▁right	-8.1677
ley	-8.17007
he	-8.17013
mer	-8.17067
▁mu	-8.17226
▁na	-8.17262
▁baghdad	-8.17511
mar	-8.18356
▁expected	-8.18408
▁sell	-8.1865
▁power	-8.18814
▁she	-8.18853
ions	-8.19111
://	-8.19141
▁system	-8.19146
▁va	-8.19149
row	-8.19293
over	-8.1935
▁turn	-8.20112
ally	-8.20113
da	-8.20238
ang	-8.20242
▁los	-8.20564
▁left	-8.20691
▁chip	-8.2088
gu	-8.21087
▁product	-8.21212
▁own	-8.21532
▁http	-8.217
▁since	-8.21714
▁wal	-8.21971
▁growth	-8.21972
▁rival	-8.22337
▁pat	-8.2239
www	-8.22394
que	-8.22474
point	-8.22568
ped	-8.22724
▁jo	-8.22753
tr	-8.229
▁early	-8.23168
▁inter	-8.23277
▁che	-8.23415
▁reach	-8.23482
▁near	-8.23973
▁hope	-8.24134
▁file	-8.24185
▁je	-8.24189
▁support	-8.24279
▁wireless	-8.24559
▁program	-8.24653
investor	-8.24757
▁how	-8.24823
ize	-8.25102
▁want	-8.2516
▁games	-8.25261
vo	-8.25341
▁20	-8.25451
▁net	-8.25511
▁fire	-8.25722
▁z	-8.25879
▁nuclear	-8.25973
▁consumer	-8.26163
▁x	-8.26399
▁miss	-8.26483
▁du	-8.26506
▁australia	-8.26559
ring	-8.26592
▁strike	-8.27073
▁dr	-8.27222
che	-8.2731
▁sub	-8.2745
▁higher	-8.27451
▁military	-8.2789
▁sun	-8.27956
▁continue	-8.28084
▁shi	-8.28454
▁rate	-8.28487
▁earnings	-8.28494
▁bra	-8.28763
▁update	-8.28846
▁even	-8.29198
▁peace	-8.29403
▁11	-8.29499
▁him	-8.29577
▁low	-8.29603
▁demand	-8.29849
▁pakistan	-8.29943
▁anti	-8.29995
▁price	-8.30049
▁iran	-8.30153
▁israeli	-8.30496
▁intel	-8.30746
▁afp	-8.31047
line	-8.31078
▁west	-8.31563
pi	-8.316
▁services	-8.31665
▁like	-8.3178
▁press	-8.31816
000	-8.32119
air	-8.32333
▁seven	-8.32447
▁apple	-8.32509
lan	-8.32647
▁keep	-8.32699
▁release	-8.32832
based	-8.32858
▁met	-8.33117
▁key	-8.33442
▁store	-8.33453
▁em	-8.33485
▁'	-8.33692
bi	-8.3396
▁increase	-8.3413
ful	-8.34456
ating	-8.34477
ual	-8.3448
▁bill	-8.3469
▁round	-8.34777
quarter	-8.34869
▁12	-8.34952
▁develop	-8.35722
▁rebel	-8.35764
▁agreed	-8.36263
cause	-8.36349
ach	-8.36548
▁good	-8.36589
▁change	-8.36756
▁drop	-8.36779
▁sox	-8.3701
▁real	-8.37061
con	-8.37092
▁join	-8.37211
▁contract	-8.37322
▁oracle	-8.37323
▁site	-8.37417
▁players	-8.3755
▁rose	-8.37556
▁amp	-8.37693
▁global	-8.37909
▁street	-8.3791
▁ran	-8.38
▁korea	-8.38199
▁there	-8.38509
▁star	-8.38709
red	-8.38766
▁come	-8.38771
▁nation	-8.38918
▁windows	-8.38984
▁airline	-8.3909
▁case	-8.39223
▁drive	-8.39229
▁any	-8.39361
▁char	-8.39575
▁ver	-8.39598
stocks	-8.39695
▁general	-8.39801
▁provide	-8.39803
▁name	-8.39839
▁latest	-8.39897
▁pc	-8.40251
▁russia	-8.40433
▁england	-8.40565
spx	-8.40653
▁many	-8.40697
if	-8.40741
▁gain	-8.40836
han	-8.40873
▁troops	-8.4095
▁militant	-8.4106
▁public	-8.4106
rate	-8.41064
▁step	-8.41086
▁result	-8.41448
▁future	-8.41503
▁ban	-8.41533
▁cap	-8.41566
▁use	-8.41601
▁number	-8.41669
ood	-8.41691
q	-8.41752
▁should	-8.4178
▁gaza	-8.41782
time	-8.42013
▁africa	-8.42059
▁football	-8.42226
▁video	-8.42228
▁remain	-8.42341
▁only	-8.42677
▁need	-8.42696
▁lower	-8.42728
▁issue	-8.42764
▁hostage	-8.42822
▁settle	-8.42865
mail	-8.42876
▁fund	-8.42918
▁again	-8.43199
▁lu	-8.43305
▁months	-8.43566
▁pass	-8.43653
ities	-8.44298
▁disc	-8.44413
50	-8.44535
back	-8.44556
▁being	-8.44621
▁seek	-8.44759
▁am	-8.44897
ious	-8.44943
▁tech	-8.4519
▁championship	-8.45337
▁boston	-8.45532
▁russian	-8.45543
espite	-8.45915
▁including	-8.45924
▁hurricane	-8.4604
▁house	-8.46206
▁cent	-8.46351
▁title	-8.46573
▁share	-8.46633
net	-8.46719
▁har	-8.46984
▁bar	-8.47023
▁half	-8.47038
▁commission	-8.47266
▁begin	-8.4728
▁users	-8.47655
▁law	-8.47665
▁days	-8.47702
▁$2	-8.47796
▁economic	-8.47796
ness	-8.47858
▁past	-8.47924
▁economy	-8.48092
▁europe	-8.48113
▁foreign	-8.4827
▁late	-8.48352
▁points	-8.48437
▁death	-8.48456
▁boost	-8.48572
▁biggest	-8.48746
▁wall	-8.48763
▁sea	-8.48766
▁released	-8.48945
▁job	-8.49108
▁find	-8.49137
▁region	-8.49348
▁ago	-8.49365
▁q	-8.49457
▁imp	-8.49476
▁much	-8.49484
▁fail	-8.49551
▁athens	-8.49827
▁ahead	-8.4988
▁creat	-8.49926
▁15	-8.50128
▁investors	-8.50174
▁jobs	-8.5019
▁raise	-8.50232
ney	-8.50379
▁men	-8.50382
▁uk	-8.50564
▁engine	-8.50672
▁your	-8.51122
▁peoplesoft	-8.51464
▁battle	-8.51587
▁rest	-8.51759
by	-8.51855
36	-8.51892
▁east	-8.52135
▁recent	-8.52151
ham	-8.52272
▁kill	-8.52333
▁port	-8.52426
▁mark	-8.52532
▁france	-8.52609
▁source	-8.52665
▁hard	-8.52674
▁fell	-8.52855
▁eu	-8.53315
▁effort	-8.53319
▁match	-8.53328
mart	-8.53392
▁nov	-8.53433
▁media	-8.53987
ought	-8.54152
▁order	-8.54199
▁allow	-8.54344
▁mc	-8.54469
▁race	-8.54479
ka	-8.54485
▁concern	-8.54512
▁manager	-8.55086
▁forces	-8.55166
▁trans	-8.55344
▁acc	-8.55411
▁held	-8.55622
▁place	-8.55853
▁force	-8.55903
▁2005	-8.56108
▁life	-8.56179
▁where	-8.56402
av	-8.56458
▁build	-8.56489
▁my	-8.56499
▁main	-8.56889
▁sudan	-8.5708
▁campaign	-8.57135
▁fourth	-8.57403
▁presidential	-8.57779
▁school	-8.57982
▁america	-8.58301
▁don	-8.58563
▁eight	-8.59052
▁short	-8.591
▁server	-8.59181
▁process	-8.59233
▁financial	-8.59298
men	-8.5937
▁far	-8.59491
▁reports	-8.59634
▁french	-8.59696
▁nearly	-8.59776
▁them	-8.59834
▁par	-8.59843
▁israel	-8.6009
▁health	-8.60101
▁version	-8.60242
▁australian	-8.60275
▁know	-8.60568
▁tokyo	-8.60632
▁fo	-8.60676
▁break	-8.60903
form	-8.60961
▁linux	-8.61103
ev	-8.61132
▁did	-8.61188
▁field	-8.61491
▁arm	-8.61537
▁workers	-8.61579
▁cell	-8.61652
▁nasa	-8.62554
▁tax	-8.62926
▁capital	-8.63217
▁visit	-8.63312
▁center	-8.63631
▁18	-8.63652
▁count	-8.63711
▁interest	-8.6384
new	-8.6395
▁digital	-8.63977
▁slow	-8.64001
gan	-8.64033
▁trial	-8.64043
▁push	-8.64123
▁came	-8.6416
▁agency	-8.64185
▁well	-8.64226
▁small	-8.64266
▁land	-8.64428
▁francisco	-8.64534
▁kerry	-8.64677
▁player	-8.64721
ock	-8.64877
par	-8.64901
ore	-8.65198
maker	-8.65508
▁unit	-8.65588
▁arrest	-8.65801
▁member	-8.65872
though	-8.66026
▁office	-8.66422
▁ki	-8.66541
bit	-8.66624
▁ko	-8.66796
▁killing	-8.66842
▁agreement	-8.67157
den	-8.67188
▁30	-8.67231
▁soldier	-8.67798
ware	-8.68079
▁success	-8.68086
▁adv	-8.68134
▁bur	-8.68486
▁forecast	-8.68667
▁crude	-8.68668
▁around	-8.68725
▁nations	-8.68797
br	-8.68897
▁best	-8.68977
▁meeting	-8.68984
pro	-8.69126
▁also	-8.69196
ja	-8.69564
▁indian	-8.69632
▁14	-8.69903
▁form	-8.69928
▁sec	-8.69951
▁scientists	-8.70059
▁september	-8.70206
▁16	-8.70376
▁chicago	-8.70428
▁systems	-8.70564
▁florida	-8.70576
▁arafat	-8.70651
for	-8.70658
▁control	-8.70799
▁attacks	-8.70808
▁october	-8.70874
▁called	-8.70976
ier	-8.71355
day	-8.71437
▁following	-8.71483
▁darfur	-8.71545
sports	-8.71766
▁whe	-8.71796
▁black	-8.71922
▁qua	-8.72078
▁auto	-8.72231
▁fear	-8.7224
▁board	-8.72257
▁took	-8.72321
▁great	-8.72533
▁mid	-8.72636
▁judge	-8.72904
▁injur	-8.73088
▁both	-8.73223
▁army	-8.73421
▁decision	-8.73894
▁stop	-8.74114
▁human	-8.74241
▁die	-8.74295
▁pack	-8.74324
▁13	-8.74327
▁send	-8.74411
▁list	-8.74455
▁cor	-8.74707
▁unveil	-8.74974
▁japanese	-8.74978
▁defense	-8.7505
har	-8.75083
ise	-8.75671
▁question	-8.75673
▁might	-8.757
▁britain	-8.75752
▁id	-8.75756
▁design	-8.75907
▁side	-8.76038
▁poll	-8.76044
▁study	-8.76301
▁here	-8.76443
▁yankees	-8.76456
▁clear	-8.76701
▁sent	-8.76702
▁wide	-8.76728
▁$4	-8.7685
▁shot	-8.77046
▁device	-8.77088
▁ka	-8.77116
▁suspect	-8.77404
▁clo	-8.77441
off	-8.77461
▁medal	-8.77564
▁club	-8.77808
▁party	-8.77862
▁appear	-8.77883
▁women	-8.78123
▁canadian	-8.78223
▁ball	-8.78423
ized	-8.78436
▁euro	-8.78546
▁electronic	-8.78844
▁broke	-8.78967
▁rev	-8.79099
▁surge	-8.79212
▁become	-8.79354
▁green	-8.79423
uck	-8.79459
▁every	-8.79531
▁17	-8.79597
▁political	-8.79734
field	-8.7976
▁conference	-8.79896
▁goal	-8.80033
▁customers	-8.80386
▁double	-8.8055
▁motor	-8.80597
▁fast	-8.80715
pping	-8.8075
▁urge	-8.80788
▁california	-8.8096
ink	-8.81063
▁several	-8.8121
▁announce	-8.81399
▁blast	-8.81462
ox	-8.81551
▁prepar	-8.81597
▁pull	-8.81647
▁100	-8.81658
▁receive	-8.81707
▁threat	-8.81719
▁problem	-8.81869
▁little	-8.81869
▁meet	-8.8218
▁energy	-8.82285
▁sony	-8.82412
▁let	-8.8248
▁northern	-8.82632
▁super	-8.8273
▁ten	-8.8276
▁southern	-8.82801
▁due	-8.82834
ify	-8.82929
▁challenge	-8.83122
▁consider	-8.83207
▁old	-8.83694
▁grand	-8.83875
▁operation	-8.84052
▁flight	-8.84065
▁protect	-8.84139
▁november	-8.84221
▁management	-8.84222
▁without	-8.84323
▁gene	-8.84423
▁abu	-8.84482
▁delay	-8.84656
▁mass	-8.8466
▁fuel	-8.84742
▁plane	-8.84802
▁baseball	-8.84818
▁pitch	-8.84913
▁extend	-8.84994
▁storm	-8.85259
▁away	-8.85282
gue	-8.8538
ung	-8.85468
▁department	-8.85677
ever	-8.85733
▁threaten	-8.86093
▁central	-8.86372
▁tv	-8.86412
▁few	-8.8674
▁straight	-8.86894
▁advance	-8.87211
▁retailer	-8.87275
▁fr	-8.87696
▁revenue	-8.87768
▁account	-8.87857
▁profile	-8.87945
▁defeat	-8.88033
▁blue	-8.88046
▁such	-8.88461
▁canada	-8.88656
▁full	-8.88663
▁quarterly	-8.88703
▁large	-8.8874
▁action	-8.88917
▁making	-8.8903
▁fans	-8.89148
▁analyst	-8.89188
▁card	-8.89423
▁25	-8.8943
▁dan	-8.89711
▁leg	-8.8984
▁michael	-8.89905
▁reject	-8.89995
▁reserve	-8.89995
▁desktop	-8.90085
▁bring	-8.90133
▁ve	-8.90228
▁told	-8.9035
▁better	-8.90376
▁jump	-8.90525
ett	-8.90602
rk	-8.91028
▁ceo	-8.91404
▁term	-8.91469
▁$3	-8.9172
▁ever	-8.91924
▁stand	-8.92012
▁lawsuit	-8.92364
▁wound	-8.92641
▁amid	-8.9278
▁application	-8.92918
▁likely	-8.93078
down	-8.9315
▁across	-8.9329
▁food	-8.93384
▁scored	-8.93403
▁running	-8.93409
▁winning	-8.93561
▁watch	-8.9376
▁prison	-8.93946
▁0	-8.93997
▁democrat	-8.94037
▁violence	-8.94131
▁williams	-8.94132
▁angeles	-8.94226
▁expand	-8.94321
▁chance	-8.94483
▁university	-8.94507
▁august	-8.94696
▁barrel	-8.94707
▁taking	-8.95001
▁less	-8.95063
▁defend	-8.95265
▁weekend	-8.95296
▁history	-8.9536
▁access	-8.95382
▁partner	-8.95526
source	-8.956
▁link	-8.95921
▁exchange	-8.95931
▁leave	-8.95934
▁radio	-8.95989
▁texas	-8.96027
▁approve	-8.96122
▁crash	-8.96317
▁ipod	-8.96412
▁chinese	-8.96506
▁houston	-8.96506
▁gun	-8.96759
▁ken	-8.96773
▁lift	-8.96777
▁chairman	-8.96987
▁coast	-8.97004
▁launched	-8.97051
▁lost	-8.97079
east	-8.97234
▁appeal	-8.97473
▁german	-8.9757
▁produce	-8.97763
▁cash	-8.97791
▁jet	-8.97795
▁focus	-8.97959
▁bay	-8.97962
▁stake	-8.97984
long	-8.97995
▁heart	-8.98084
▁among	-8.9817
round	-8.98832
▁protest	-8.98845
▁sharp	-8.99053
ability	-8.99137
▁germany	-8.99139
▁probe	-8.99254
▁white	-8.99333
▁fact	-8.99345
▁plea	-8.99374
range	-8.99414
▁eye	-8.99442
▁station	-8.99487
▁same	-8.996
▁$5	-8.99883
▁secretary	-9.00145
▁afghan	-9.00425
▁trading	-9.00426
▁morning	-9.00526
▁information	-9.00528
▁cur	-9.00607
▁rally	-9.00718
▁television	-9.00726
▁base	-9.00741
▁senior	-9.00927
▁accused	-9.00929
▁afghanistan	-9.01027
▁regulator	-9.01229
▁confirm	-9.01329
▁improve	-9.01431
▁train	-9.01656
▁soon	-9.01678
▁behind	-9.01835
▁mac	-9.01916
▁attempt	-9.01936
▁expect	-9.02134
▁investment	-9.02139
▁possible	-9.02139
▁division	-9.0247
▁weak	-9.02555
▁falluja	-9.02649
▁yahoo	-9.02649
▁project	-9.02752
▁director	-9.02818
▁must	-9.03198
▁oct	-9.03419
▁believe	-9.03471
▁operating	-9.03573
▁david	-9.03576
light	-9.03587
▁nine	-9.0374
▁communications	-9.0378
▁photo	-9.04091
▁risk	-9.04198
▁labor	-9.04203
▁paul	-9.04474
▁event	-9.04543
▁24	-9.04617
▁injured	-9.04695
▁indonesia	-9.04714
▁water	-9.0475
▁sports	-9.04945
▁spam	-9.05008
▁warned	-9.05089
▁republic	-9.05132
▁paris	-9.05173
▁multi	-9.05299
▁21	-9.05327
▁bankruptcy	-9.05342
duct	-9.05717
▁almost	-9.05764
▁tie	-9.06039
▁thousands	-9.0608
▁enter	-9.06623
▁acquire	-9.06716
▁sale	-9.0689
▁decline	-9.06942
▁takeover	-9.07071
▁bowl	-9.07161
▁holiday	-9.07572
▁stadium	-9.07679
▁personal	-9.07788
▁speed	-9.0781
▁ready	-9.08012
ford	-9.08086
▁rocket	-9.08307
▁touchdown	-9.08326
▁outlook	-9.08434
▁travel	-9.08543
▁nfl	-9.08873
▁local	-9.0899
▁stay	-9.09273
▁introduc	-9.09304
▁virgin	-9.09304
▁those	-9.09635
▁track	-9.09638
▁heat	-9.09999
▁officer	-9.10124
▁production	-9.10217
▁warning	-9.10245
▁money	-9.10382
▁yet	-9.10575
▁legal	-9.10592
▁louis	-9.10627
▁agree	-9.10731
▁toronto	-9.10738
▁jones	-9.10877
▁inning	-9.10957
▁camp	-9.10987
final	-9.11056
▁level	-9.1107
▁rock	-9.11122
▁standard	-9.11257
▁popular	-9.1129
▁private	-9.1129
0000	-9.11806
▁finish	-9.11851
▁cause	-9.11927
▁resign	-9.11961
▁alleged	-9.12523
▁draw	-9.1253
▁rich	-9.12568
▁pressure	-9.12587
▁spain	-9.12771
▁complete	-9.12891
▁opposition	-9.13202
▁performance	-9.13202
▁pick	-9.13221
▁deliver	-9.13317
▁roll	-9.13498
▁association	-9.13544
▁tiger	-9.13691
▁live	-9.13751
font	-9.13945
▁spot	-9.14064
▁road	-9.14219
▁muslim	-9.14345
▁corporate	-9.14807
iff	-9.14961
▁guard	-9.15107
▁brazil	-9.15152
▁blair	-9.15273
▁withdraw	-9.155
▁recover	-9.1562
head	-9.15739
▁career	-9.16006
▁retail	-9.16041
▁park	-9.16236
▁earlier	-9.16317
▁civil	-9.16317
▁began	-9.16364
▁talk	-9.16378
▁publish	-9.16551
▁retire	-9.1657
▁suit	-9.16644
▁hospital	-9.16786
▁brown	-9.16913
▁ltd	-9.16948
▁council	-9.1714
▁suspend	-9.1714
▁block	-9.17141
▁export	-9.17164
▁fresh	-9.17265
▁special	-9.17377
trust	-9.17697
▁quarterback	-9.17801
▁western	-9.17985
▁insurance	-9.1821
▁countries	-9.18569
▁light	-9.18803
▁administration	-9.18928
▁host	-9.19211
▁already	-9.1941
▁town	-9.19509
▁phil	-9.19511
▁pace	-9.19565
▁arsenal	-9.19653
▁competition	-9.19773
▁sept	-9.19803
▁george	-9.19895
▁sprint	-9.20017
▁development	-9.20056
▁supply	-9.2026
▁connect	-9.20267
▁outside	-9.20427
▁terror	-9.21019
151	-9.21124
▁edge	-9.21292
▁ski	-9.21463
▁survey	-9.21486
▁spending	-9.21492
▁italian	-9.21616
▁madrid	-9.21733
▁treat	-9.21752
▁middle	-9.21863
▁think	-9.22108
▁book	-9.2237
▁score	-9.22465
▁trouble	-9.22478
▁miami	-9.22607
▁check	-9.22731
▁position	-9.22853
▁strip	-9.22935
▁family	-9.22978
▁candidate	-9.23228
▁weapons	-9.23228
▁download	-9.23229
▁fraud	-9.23231
▁airways	-9.2336
▁movie	-9.23378
▁current	-9.23733
▁ground	-9.23947
▁congress	-9.23985
▁reveal	-9.23996
▁decade	-9.2402
▁sharon	-9.24217
▁hours	-9.24577
▁young	-9.24648
▁dispute	-9.24874
▁schedule	-9.25002
ville	-9.25024
▁policy	-9.25258
▁egypt	-9.25386
▁effect	-9.25515
▁beijing	-9.25643
update	-9.2584
▁martin	-9.25888
▁include	-9.25903
▁credit	-9.2591
type	-9.25962
▁crisis	-9.2603
▁authorities	-9.26045
▁bird	-9.26063
▁college	-9.26159
▁nigeria	-9.26159
▁enough	-9.26159
▁arab	-9.2619
▁direct	-9.26208
season	-9.26232
▁insurgent	-9.26288
▁nba	-9.26362
▁terrorist	-9.26391
▁feature	-9.26418
▁premier	-9.26419
▁ruling	-9.26633
▁gave	-9.26798
▁rout	-9.26866
▁emerge	-9.2695
ntil	-9.26986
expected	-9.27272
▁seattle	-9.27329
▁earth	-9.27336
▁pilot	-9.27466
▁view	-9.27468
▁suicide	-9.27591
under	-9.27595
▁wild	-9.27618
▁manchester	-9.27985
▁suffer	-9.28118
▁mission	-9.28154
▁children	-9.28381
▁enterprise	-9.28513
▁merger	-9.28518
▁yards	-9.28791
▁investigation	-9.28911
▁express	-9.29121
▁each	-9.29168
▁semi	-9.29238
▁satellite	-9.29444
▁thing	-9.29584
▁mean	-9.29634
▁replace	-9.29712
▁barr	-9.30026
▁debt	-9.30036
▁ivan	-9.30128
▁debate	-9.3026
▁cisco	-9.30655
▁annual	-9.30661
▁quit	-9.30877
▁lock	-9.30911
▁suggest	-9.30925
▁clash	-9.3093
▁aimed	-9.31005
▁review	-9.31061
▁matt	-9.31187
▁soccer	-9.31332
▁debut	-9.31473
▁single	-9.31571
▁image	-9.31744
▁explosion	-9.31878
▁further	-9.31881
▁yukos	-9.32152
▁yass	-9.32169
▁staff	-9.32297
▁virus	-9.32452
▁save	-9.32557
▁playoff	-9.32919
▁previous	-9.33118
▁basketball	-9.33395
▁golf	-9.34243
ible	-9.34334
▁rising	-9.34961
▁moscow	-9.35078
▁heavy	-9.3508
▁film	-9.35192
▁estimate	-9.35219
▁discuss	-9.35378
▁davis	-9.35658
▁dvd	-9.3566
▁cricket	-9.35787
▁wait	-9.35806
▁powerful	-9.35864
▁bull	-9.36027
▁atlanta	-9.36073
▁arrive	-9.36076
▁steve	-9.36112
▁browser	-9.36215
▁finance	-9.36218
▁steel	-9.3639
▁potential	-9.36501
▁journal	-9.36644
▁calif	-9.36648
▁above	-9.36943
▁promise	-9.36944
▁never	-9.37565
▁figure	-9.37656
▁practice	-9.378
▁benefit	-9.38822
▁weigh	-9.38885
▁organization	-9.39263
▁illegal	-9.39558
▁storage	-9.39709
▁option	-9.39717
▁earn	-9.39821
▁ease	-9.39952
▁machine	-9.40004
▁worth	-9.4001
▁front	-9.40017
▁accept	-9.40152
▁micro	-9.40471
▁write	-9.4068
work	-9.41233
▁reduce	-9.41354
▁prize	-9.4151
▁hurt	-9.41573
▁expectations	-9.41659
▁limit	-9.41812
▁delta	-9.41824
▁planned	-9.41865
▁damage	-9.41955
▁avoid	-9.42111
▁content	-9.4263
▁captain	-9.42642
▁slip	-9.42991
▁nokia	-9.4302
▁parliament	-9.4317
▁carrier	-9.43196
▁shareholder	-9.43631
▁hundreds	-9.43939
▁palm	-9.44115
▁strength	-9.44249
▁missile	-9.44262
▁available	-9.44404
▁tournament	-9.44404
▁blow	-9.44573
▁detroit	-9.44714
▁italy	-9.44827
▁securities	-9.45183
▁ryder	-9.45654
▁proposal	-9.45968
▁$50	-9.46037
generation	-9.46529
▁medical	-9.466
▁najaf	-9.46759
▁color	-9.46789
▁newspaper	-9.46918
▁shoot	-9.46923
▁singapore	-9.47077
▁employees	-9.4724
▁surviv	-9.47398
▁recall	-9.47404
▁boeing	-9.47482
▁astros	-9.47721
▁philadelphia	-9.48199
▁dutch	-9.48366
▁word	-9.48398
▁ireland	-9.48523
▁acquisition	-9.48683
▁message	-9.48685
▁predict	-9.48685
nasdaq	-9.48845
▁blood	-9.48848
▁taiwan	-9.4917
▁woods	-9.49393
▁islamic	-9.49496
▁december	-9.4966
▁safety	-9.497
▁deficit	-9.49987
▁terrorism	-9.50481
ranked	-9.50503
▁border	-9.50978
▁rebound	-9.51309
▁struggle	-9.51309
▁cleric	-9.51314
▁offensive	-9.51642
▁technologies	-9.51809
▁environment	-9.51976
▁pension	-9.52145
▁climb	-9.52989
▁employ	-9.5315
▁shut	-9.53343
▁brief	-9.53495
▁detail	-9.53496
▁haiti	-9.53621
▁scandal	-9.53664
▁average	-9.53672
▁fifth	-9.53835
▁giving	-9.53845
▁lawyer	-9.53877
world	-9.53978
▁safe	-9.54072
▁commercial	-9.54175
▁dream	-9.54181
▁chris	-9.54216
▁surprise	-9.54347
▁streak	-9.54349
▁operator	-9.5469
▁titan	-9.54876
▁serious	-9.554
▁celebrat	-9.55554
▁kashmir	-9.55727
▁condition	-9.55728
▁model	-9.55953
▁equipment	-9.56075
▁kidnapped	-9.56075
▁woman	-9.56082
▁crowd	-9.56258
press	-9.56333
▁victim	-9.56425
▁royal	-9.5645
▁broadband	-9.566
▁summer	-9.56955
▁represent	-9.57303
▁bonds	-9.57341
▁science	-9.5766
▁friend	-9.57661
▁course	-9.57844
▁follow	-9.57982
▁greece	-9.58012
▁panel	-9.58034
▁author	-9.58705
▁evidence	-9.58726
▁minnesota	-9.58726
▁spokesman	-9.58726
▁dozen	-9.5891
▁why	-9.59109
▁throw	-9.59452
▁mortgage	-9.59806
▁nhl	-9.6
▁initial	-9.60181
▁turkey	-9.60715
▁cross	-9.6073
vision	-9.60932
▁murder	-9.61081
▁purchase	-9.61448
quote	-9.61492
▁chelsea	-9.61632
▁feel	-9.61672
▁exec	-9.61776
▁picture	-9.61817
▁admit	-9.61819
▁favor	-9.62193
▁flaw	-9.62209
related	-9.62314
▁pound	-9.62941
▁tennis	-9.63128
having	-9.63396
▁doubt	-9.63493
helve	-9.63539
▁guilty	-9.63681
▁distribut	-9.63869
▁resume	-9.64107
▁supreme	-9.64247
▁$7	-9.64626
▁confidence	-9.64626
▁upgrade	-9.64628
▁screen	-9.6463
▁expos	-9.64676
▁vehicle	-9.65007
▁cardinals	-9.6558
▁attorney	-9.65772
▁classic	-9.65772
▁broad	-9.65778
▁committee	-9.6635
▁minutes	-9.6638
▁$8	-9.66544
▁mexico	-9.66544
▁proposed	-9.66544
▁measure	-9.66544
house	-9.66635
▁increasing	-9.66737
▁value	-9.6681
▁january	-9.66932
▁spanish	-9.66933
▁itunes	-9.66946
▁hollywood	-9.67126
▁worries	-9.67126
▁pledg	-9.67199
▁approach	-9.67321
▁sanctions	-9.67321
▁apparent	-9.67517
▁refus	-9.67534
newsfactor	-9.67712
▁leaving	-9.67714
▁karzai	-9.67908
▁vendor	-9.67911
▁reason	-9.67927
▁memory	-9.68105
▁weather	-9.68303
▁zealand	-9.68499
▁crew	-9.68924
tified	-9.69092
▁document	-9.69093
▁entertainment	-9.69491
▁powell	-9.69493
▁formula	-9.70303
▁progress	-9.70493
▁prosecutor	-9.70493
▁supplies	-9.70493
▁aircraft	-9.70694
▁command	-9.70706
▁crime	-9.70922
▁blame	-9.70923
▁kong	-9.71121
▁philippine	-9.71302
▁involve	-9.71302
▁capture	-9.71309
▁sweep	-9.71709
▁venture	-9.7171
▁catch	-9.71736
▁violat	-9.71772
▁firefox	-9.71913
▁slightly	-9.71918
▁conflict	-9.72117
▁auction	-9.72323
▁diplomat	-9.72528
▁shopping	-9.72529
▁stewart	-9.72733
▁secret	-9.72908
▁inflation	-9.7294
▁masters	-9.7295
▁platform	-9.73146
▁solution	-9.73147
▁broadcast	-9.73354
▁display	-9.73768
▁spark	-9.7379
▁kabul	-9.74396
▁assault	-9.74604
▁became	-9.74607
qaeda	-9.75034
week	-9.7517
▁carolina	-9.75236
▁ukraine	-9.75236
▁prix	-9.75455
▁cuba	-9.75667
▁electric	-9.75872
▁patriots	-9.75872
▁promot	-9.76082
▁passenger	-9.76085
▁eagles	-9.76085
▁interview	-9.76298
▁oakland	-9.76298
stitution	-9.76511
▁hockey	-9.76511
▁easy	-9.76523
▁rescue	-9.76944
▁irish	-9.76948
▁hamm	-9.77175
high	-9.77316
▁wave	-9.77478
▁shock	-9.77595
▁knock	-9.78023
canadian	-9.78398
▁cyber	-9.78464
▁batter	-9.78689
▁ministry	-9.78892
▁uranium	-9.78892
▁ivory	-9.78893
▁impact	-9.78896
▁opec	-9.78899
▁saudi	-9.79334
▁embassy	-9.79552
▁relief	-9.79552
▁frank	-9.79553
▁learn	-9.8001
▁michigan	-9.80438
▁critical	-9.80438
▁ohio	-9.80441
▁certain	-9.80443
▁christmas	-9.8066
▁negotiations	-9.8066
▁spacecraft	-9.8066
▁merck	-9.80661
▁earthquake	-9.81107
▁thailand	-9.81107
▁greek	-9.81333
▁request	-9.81336
▁consecutive	-9.81556
▁dolphins	-9.81556
▁immediate	-9.81556
▁dallas	-9.81558
▁criminal	-9.81781
stroke	-9.81871
▁intelligence	-9.82007
▁syria	-9.82031
▁remov	-9.8219
▁prevent	-9.82918
▁worldwide	-9.82918
▁different	-9.83144
▁strategy	-9.83372
▁budget	-9.83602
▁kansas	-9.84062
▁dismiss	-9.84063
▁corporation	-9.84066
▁probabl	-9.84109
▁controversial	-9.84293
▁significant	-9.84524
▁deploy	-9.84524
▁himself	-9.84757
▁refugee	-9.84989
▁approval	-9.85222
▁collect	-9.85223
▁venezuela	-9.85456
▁studio	-9.85456
▁cubs	-9.85458
▁hostile	-9.85459
▁output	-9.85695
▁welcome	-9.85927
▁knee	-9.85946
▁climate	-9.86397
▁cleveland	-9.86632
▁industrial	-9.86632
▁session	-9.86638
▁alliance	-9.86873
▁semiconductor	-9.87107
▁historic	-9.87107
▁advertising	-9.87345
▁struggling	-9.87345
▁afternoon	-9.87586
▁positive	-9.87823
▁prince	-9.87823
▁veteran	-9.88063
▁georgia	-9.88303
66666	-9.88303
▁threw	-9.88303
▁instead	-9.88304
▁airbus	-9.88789
minute	-9.89004
▁vioxx	-9.89028
▁convention	-9.8927
▁athletic	-9.8927
▁built	-9.8927
▁struck	-9.89273
▁jerusalem	-9.89514
▁period	-9.89517
▁divide	-9.89522
▁pittsburgh	-9.89757
▁wrong	-9.8976
▁militia	-9.90002
▁shuttle	-9.90007
▁robert	-9.90018
▁summit	-9.90247
▁truck	-9.90496
▁manufacturing	-9.90739
▁arizona	-9.91234
▁musharraf	-9.91234
▁nintendo	-9.91234
▁notebook	-9.91234
▁telephone	-9.91234
▁federer	-9.91236
▁scott	-9.91238
▁domestic	-9.91482
▁virtual	-9.9198
▁traffic	-9.9198
▁inventor	-9.9198
▁province	-9.9223
▁delhi	-9.92233
▁monitor	-9.92732
▁cingular	-9.92984
▁nikk	-9.92989
▁trophy	-9.93236
▁sydney	-9.93998
▁community	-9.94253
▁saddam	-9.94509
ification	-9.94509
(	-10.2511
#	-12.9349
$	-12.9349
